44200014
0421E800
3C410000
44200018
0421E800
3C610000
08821800
44A00010
3CC50000
3CE50001
3D050002
3D250003
45400004
0D5D5000
3D6A0000
3D8A0001
3DAA0002
3DCA0003
45E00004
4E043000
52107800
096B8000
4E043800
52107800
098C8000
4E044000
52107800
09AD8000
4E044800
52107800
09CE8000
416A0000
418A0001
41AA0002
41CA0003
48000000
